TRT-8602-EntropyCalibration2
input: 3c010a16
/0/model.0/conv/Conv_output_0: 3e59b693
/0/model.0/act/Sigmoid_output_0: 3c010a14
/0/model.0/act/Mul_output_0: 3dc41f83
/0/model.1/conv/Conv_output_0: 3e638332
/0/model.1/act/Sigmoid_output_0: 3c010a14
/0/model.1/act/Mul_output_0: 3e16abef
/0/model.2/cv1/conv/Conv_output_0: 3e403a12
/0/model.2/cv1/act/Sigmoid_output_0: 3c010a14
/0/model.2/cv1/act/Mul_output_0: 3d709776
/0/model.2/Split_output_0: 3d71b39e
/0/model.2/Split_output_1: 3d247177
/0/model.2/m.0/cv1/conv/Conv_output_0: 3e53b6a1
/0/model.2/m.0/cv1/act/Sigmoid_output_0: 3c010a14
/0/model.2/m.0/cv1/act/Mul_output_0: 3d9327ff
/0/model.2/m.0/cv2/conv/Conv_output_0: 3e1d68bf
/0/model.2/m.0/cv2/act/Sigmoid_output_0: 3c010a14
/0/model.2/m.0/cv2/act/Mul_output_0: 3d96601e
/0/model.2/m.0/Add_output_0: 3de50e0c
/0/model.2/Concat_output_0: 3dbeca27
/0/model.2/cv2/conv/Conv_output_0: 3dc3be06
/0/model.2/cv2/act/Sigmoid_output_0: 3c00b929
/0/model.2/cv2/act/Mul_output_0: 3ce63a1d
/0/model.3/conv/Conv_output_0: 3d7ea63e
/0/model.3/act/Sigmoid_output_0: 3bfeeb23
/0/model.3/act/Mul_output_0: 3ca59afa
/0/model.4/cv1/conv/Conv_output_0: 3d6a2651
/0/model.4/cv1/act/Sigmoid_output_0: 3c00e99b
/0/model.4/cv1/act/Mul_output_0: 3cc3164a
/0/model.4/Split_output_0: 3d01ed6e
/0/model.4/Split_output_1: 3c72bb8b
/0/model.4/m.0/cv1/conv/Conv_output_0: 3d63acbe
/0/model.4/m.0/cv1/act/Sigmoid_output_0: 3bfdb448
/0/model.4/m.0/cv1/act/Mul_output_0: 3c91470b
/0/model.4/m.0/cv2/conv/Conv_output_0: 3d341be7
/0/model.4/m.0/cv2/act/Sigmoid_output_0: 3c009182
/0/model.4/m.0/cv2/act/Mul_output_0: 3cb0c7b1
/0/model.4/m.0/Add_output_0: 3d103de8
/0/model.4/m.1/cv1/conv/Conv_output_0: 3d493244
/0/model.4/m.1/cv1/act/Sigmoid_output_0: 3bfa399a
/0/model.4/m.1/cv1/act/Mul_output_0: 3c107512
/0/model.4/m.1/cv2/conv/Conv_output_0: 3d81d1f0
/0/model.4/m.1/cv2/act/Sigmoid_output_0: 3c00ae2c
/0/model.4/m.1/cv2/act/Mul_output_0: 3cd1cb4e
/0/model.4/m.1/Add_output_0: 3d62a1b2
/0/model.4/Concat_output_0: 3d295beb
/0/model.4/cv2/conv/Conv_output_0: 3d531f6c
/0/model.4/cv2/act/Sigmoid_output_0: 3c00f0dd
/0/model.4/cv2/act/Mul_output_0: 3cc340fd
/0/model.5/conv/Conv_output_0: 3d4e5e9e
/0/model.5/act/Sigmoid_output_0: 3c0085cf
/0/model.5/act/Mul_output_0: 3ca75be8
/0/model.6/cv1/conv/Conv_output_0: 3d655337
/0/model.6/cv1/act/Sigmoid_output_0: 3c00e5f1
/0/model.6/cv1/act/Mul_output_0: 3cb0dfdc
/0/model.6/Split_output_0: 3cb0dfdc
/0/model.6/Split_output_1: 3c88d160
/0/model.6/m.0/cv1/conv/Conv_output_0: 3d4ab88c
/0/model.6/m.0/cv1/act/Sigmoid_output_0: 3c00a810
/0/model.6/m.0/cv1/act/Mul_output_0: 3c726c96
/0/model.6/m.0/cv2/conv/Conv_output_0: 3d4deb7c
/0/model.6/m.0/cv2/act/Sigmoid_output_0: 3c004557
/0/model.6/m.0/cv2/act/Mul_output_0: 3cb44a82
/0/model.6/m.0/Add_output_0: 3d1980f5
/0/model.6/m.1/cv1/conv/Conv_output_0: 3d5a7aa5
/0/model.6/m.1/cv1/act/Sigmoid_output_0: 3c008757
/0/model.6/m.1/cv1/act/Mul_output_0: 3c3cba16
/0/model.6/m.1/cv2/conv/Conv_output_0: 3d985dd2
/0/model.6/m.1/cv2/act/Sigmoid_output_0: 3c00f9f4
/0/model.6/m.1/cv2/act/Mul_output_0: 3d00075c
/0/model.6/m.1/Add_output_0: 3d74453d
/0/model.6/Concat_output_0: 3d003616
/0/model.6/cv2/conv/Conv_output_0: 3d570dbf
/0/model.6/cv2/act/Sigmoid_output_0: 3c00e5f9
/0/model.6/cv2/act/Mul_output_0: 3c721257
/0/model.7/conv/Conv_output_0: 3d57a348
/0/model.7/act/Sigmoid_output_0: 3c0078f7
/0/model.7/act/Mul_output_0: 3ca6034e
/0/model.8/cv1/conv/Conv_output_0: 3d7d39ef
/0/model.8/cv1/act/Sigmoid_output_0: 3c00f054
/0/model.8/cv1/act/Mul_output_0: 3ce9252c
/0/model.8/Split_output_0: 3ce9252c
/0/model.8/Split_output_1: 3c73f10d
/0/model.8/m.0/cv1/conv/Conv_output_0: 3d660406
/0/model.8/m.0/cv1/act/Sigmoid_output_0: 3c010f48
/0/model.8/m.0/cv1/act/Mul_output_0: 3cb40c47
/0/model.8/m.0/cv2/conv/Conv_output_0: 3d9a31f2
/0/model.8/m.0/cv2/act/Sigmoid_output_0: 3c010a14
/0/model.8/m.0/cv2/act/Mul_output_0: 3d00712f
/0/model.8/m.0/Add_output_0: 3d4fade0
/0/model.8/Concat_output_0: 3cc05b88
/0/model.8/cv2/conv/Conv_output_0: 3d6f7e41
/0/model.8/cv2/act/Sigmoid_output_0: 3c00adbf
/0/model.8/cv2/act/Mul_output_0: 3cd5ceae
/0/model.9/cv1/conv/Conv_output_0: 3d54199d
/0/model.9/cv1/act/Sigmoid_output_0: 3c0065ac
/0/model.9/cv1/act/Mul_output_0: 3d412cde
/0/model.9/m/MaxPool_output_0: 3d412cde
/0/model.9/m_1/MaxPool_output_0: 3d412cde
/0/model.9/m_2/MaxPool_output_0: 3d412cde
/0/model.9/Concat_output_0: 3d66e159
/0/model.9/cv2/conv/Conv_output_0: 3d6e0d66
/0/model.9/cv2/act/Sigmoid_output_0: 3c00bfd8
/0/model.9/cv2/act/Mul_output_0: 3c66b321
/0/model.10/Resize_output_0: 3c66b321
/0/model.11/Concat_output_0: 3c721257
/0/model.12/cv1/conv/Conv_output_0: 3d6e4c42
/0/model.12/cv1/act/Sigmoid_output_0: 3c00c51c
/0/model.12/cv1/act/Mul_output_0: 3cb4c119
/0/model.12/Split_output_0: 3cb4c119
/0/model.12/Split_output_1: 3cc36e22
/0/model.12/m.0/cv1/conv/Conv_output_0: 3d5083d9
/0/model.12/m.0/cv1/act/Sigmoid_output_0: 3c00aea2
/0/model.12/m.0/cv1/act/Mul_output_0: 3c6a033e
/0/model.12/m.0/cv2/conv/Conv_output_0: 3d58522c
/0/model.12/m.0/cv2/act/Sigmoid_output_0: 3c00e92e
/0/model.12/m.0/cv2/act/Mul_output_0: 3cc1e821
/0/model.12/Concat_output_0: 3cc1e821
/0/model.12/cv2/conv/Conv_output_0: 3d5cfb09
/0/model.12/cv2/act/Sigmoid_output_0: 3c00e1e6
/0/model.12/cv2/act/Mul_output_0: 3cb3f50f
/0/model.13/Resize_output_0: 3cb3f50f
/0/model.14/Concat_output_0: 3cc340fd
/0/model.15/cv1/conv/Conv_output_0: 3d2fcd2b
/0/model.15/cv1/act/Sigmoid_output_0: 3bf4ea5b
/0/model.15/cv1/act/Mul_output_0: 3c74c8a4
/0/model.15/Split_output_0: 3c74c8a4
/0/model.15/Split_output_1: 3c90cd04
/0/model.15/m.0/cv1/conv/Conv_output_0: 3d1b7811
/0/model.15/m.0/cv1/act/Sigmoid_output_0: 3bf4fdb6
/0/model.15/m.0/cv1/act/Mul_output_0: 3cb1945c
/0/model.15/m.0/cv2/conv/Conv_output_0: 3d3aa6ad
/0/model.15/m.0/cv2/act/Sigmoid_output_0: 3c008cec
/0/model.15/m.0/cv2/act/Mul_output_0: 3cb2fa4e
/0/model.15/Concat_output_0: 3c8130e8
/0/model.15/cv2/conv/Conv_output_0: 3d38afa3
/0/model.15/cv2/act/Sigmoid_output_0: 3bf7b37d
/0/model.15/cv2/act/Mul_output_0: 3c5101a6
/0/model.16/conv/Conv_output_0: 3d41931b
/0/model.16/act/Sigmoid_output_0: 3c006432
/0/model.16/act/Mul_output_0: 3cb466b9
/0/model.17/Concat_output_0: 3cb466b9
/0/model.18/cv1/conv/Conv_output_0: 3d3d91a5
/0/model.18/cv1/act/Sigmoid_output_0: 3c00e769
/0/model.18/cv1/act/Mul_output_0: 3c51933a
/0/model.18/Split_output_0: 3c51933a
/0/model.18/Split_output_1: 3c90fae0
/0/model.18/m.0/cv1/conv/Conv_output_0: 3d42e723
/0/model.18/m.0/cv1/act/Sigmoid_output_0: 3bf172ce
/0/model.18/m.0/cv1/act/Mul_output_0: 3c991d3a
/0/model.18/m.0/cv2/conv/Conv_output_0: 3d809902
/0/model.18/m.0/cv2/act/Sigmoid_output_0: 3c00efa3
/0/model.18/m.0/cv2/act/Mul_output_0: 3cd30bc7
/0/model.18/Concat_output_0: 3c9139e9
/0/model.18/cv2/conv/Conv_output_0: 3d86a891
/0/model.18/cv2/act/Sigmoid_output_0: 3c00c3d7
/0/model.18/cv2/act/Mul_output_0: 3c74689b
/0/model.19/conv/Conv_output_0: 3d50e3be
/0/model.19/act/Sigmoid_output_0: 3c006585
/0/model.19/act/Mul_output_0: 3cb4aad3
/0/model.20/Concat_output_0: 3c66b321
/0/model.21/cv1/conv/Conv_output_0: 3d58079b
/0/model.21/cv1/act/Sigmoid_output_0: 3c00ace1
/0/model.21/cv1/act/Mul_output_0: 3c4d9474
/0/model.21/Split_output_0: 3c4d9474
/0/model.21/Split_output_1: 3c9a2cef
/0/model.21/m.0/cv1/conv/Conv_output_0: 3d643666
/0/model.21/m.0/cv1/act/Sigmoid_output_0: 3c00c99b
/0/model.21/m.0/cv1/act/Mul_output_0: 3cc3c9a8
/0/model.21/m.0/cv2/conv/Conv_output_0: 3d9f1731
/0/model.21/m.0/cv2/act/Sigmoid_output_0: 3c00f1da
/0/model.21/m.0/cv2/act/Mul_output_0: 3cd0fc88
/0/model.21/Concat_output_0: 3c96dd0a
/0/model.21/cv2/conv/Conv_output_0: 3dacd8ed
/0/model.21/cv2/act/Sigmoid_output_0: 3c00ee30
/0/model.21/cv2/act/Mul_output_0: 3cd56f43
/0/model.22/cv2.0/cv2.0.0/conv/Conv_output_0: 3d8d8187
/0/model.22/cv2.0/cv2.0.0/act/Sigmoid_output_0: 3c00f058
/0/model.22/cv2.0/cv2.0.0/act/Mul_output_0: 3ce9616d
/0/model.22/cv2.0/cv2.0.1/conv/Conv_output_0: 3e5ab794
/0/model.22/cv2.0/cv2.0.1/act/Sigmoid_output_0: 3c010a14
/0/model.22/cv2.0/cv2.0.1/act/Mul_output_0: 3dca052e
/0/model.22/cv2.0/cv2.0.2/Conv_output_0: 3dcaa68a
/0/model.22/cv3.0/cv3.0.0/conv/Conv_output_0: 3d5d2938
/0/model.22/cv3.0/cv3.0.0/act/Sigmoid_output_0: 3c003483
/0/model.22/cv3.0/cv3.0.0/act/Mul_output_0: 3c9b5a38
/0/model.22/cv3.0/cv3.0.1/conv/Conv_output_0: 3e1dee68
/0/model.22/cv3.0/cv3.0.1/act/Sigmoid_output_0: 3c010a14
/0/model.22/cv3.0/cv3.0.1/act/Mul_output_0: 3e00c30d
/0/model.22/cv3.0/cv3.0.2/Conv_output_0: 3e290d73
/0/model.22/Concat_output_0: 3e290d73
/0/model.22/cv2.1/cv2.1.0/conv/Conv_output_0: 3d98a5d8
/0/model.22/cv2.1/cv2.1.0/act/Sigmoid_output_0: 3c010e9e
/0/model.22/cv2.1/cv2.1.0/act/Mul_output_0: 3d286482
/0/model.22/cv2.1/cv2.1.1/conv/Conv_output_0: 3e859ba0
/0/model.22/cv2.1/cv2.1.1/act/Sigmoid_output_0: 3c010a14
/0/model.22/cv2.1/cv2.1.1/act/Mul_output_0: 3e19bf66
/0/model.22/cv2.1/cv2.1.2/Conv_output_0: 3dc22275
/0/model.22/cv3.1/cv3.1.0/conv/Conv_output_0: 3d92bdb0
/0/model.22/cv3.1/cv3.1.0/act/Sigmoid_output_0: 3c00f114
/0/model.22/cv3.1/cv3.1.0/act/Mul_output_0: 3ce6e29f
/0/model.22/cv3.1/cv3.1.1/conv/Conv_output_0: 3e331a4e
/0/model.22/cv3.1/cv3.1.1/act/Sigmoid_output_0: 3c010a14
/0/model.22/cv3.1/cv3.1.1/act/Mul_output_0: 3dc55c14
/0/model.22/cv3.1/cv3.1.2/Conv_output_0: 3e49b109
/0/model.22/Concat_1_output_0: 3e482730
/0/model.22/cv2.2/cv2.2.0/conv/Conv_output_0: 3db361b5
/0/model.22/cv2.2/cv2.2.0/act/Sigmoid_output_0: 3c03155b
/0/model.22/cv2.2/cv2.2.0/act/Mul_output_0: 3d24fff4
/0/model.22/cv2.2/cv2.2.1/conv/Conv_output_0: 3ea537ab
/0/model.22/cv2.2/cv2.2.1/act/Sigmoid_output_0: 3c010a14
/0/model.22/cv2.2/cv2.2.1/act/Mul_output_0: 3e967978
/0/model.22/cv2.2/cv2.2.2/Conv_output_0: 3dbe07a0
/0/model.22/cv3.2/cv3.2.0/conv/Conv_output_0: 3da6aeff
/0/model.22/cv3.2/cv3.2.0/act/Sigmoid_output_0: 3c00f058
/0/model.22/cv3.2/cv3.2.0/act/Mul_output_0: 3ce95ef4
/0/model.22/cv3.2/cv3.2.1/conv/Conv_output_0: 3e7ecf0a
/0/model.22/cv3.2/cv3.2.1/act/Sigmoid_output_0: 3c010a14
/0/model.22/cv3.2/cv3.2.1/act/Mul_output_0: 3dc46b49
/0/model.22/cv3.2/cv3.2.2/Conv_output_0: 3e655269
/0/model.22/Concat_2_output_0: 3e655269
/0/model.22/Reshape_output_0: 3e290d73
/0/model.22/Reshape_1_output_0: 3e482730
/0/model.22/Reshape_2_output_0: 3e655269
/0/model.22/Concat_6_output_0: 3e389184
/0/model.22/Split_1_output_0: 3dc7443b
/0/model.22/Split_1_output_1: 3e3aca4d
/0/model.22/dfl/Reshape_output_0: 3dc7443b
/0/model.22/dfl/Transpose_output_0: 3dc7443b
(Unnamed Layer* 316) [Softmax]_output: 3baa6f3a
/0/model.22/dfl/conv/Conv_output_0: 3de19216
/0/model.22/dfl/Reshape_1_output_0: 3de19216
/0/model.22/Slice_output_0: 3de39ba0
/0/model.22/Slice_1_output_0: 3de29728
(Unnamed Layer* 382) [Constant]_output: 3ff08079
/0/model.22/Sub_output_0: 3ff9196e
/0/model.22/Add_10_output_0: 3ff408c2
/0/model.22/Add_11_output_0: 4091d43f
(Unnamed Layer* 387) [Shuffle]_output: 3c810a14
/0/model.22/Div_1_output_0: 4011d43f
/0/model.22/Sub_1_output_0: 3e60ca59
/0/model.22/Concat_24_output_0: 3ff38a35
(Unnamed Layer* 391) [Constant]_output: 3e810a14
(Unnamed Layer* 392) [Shuffle]_output: 3e810a14
/0/model.22/Mul_5_output_0: 41796fce
/0/model.22/Sigmoid_output_0: 3ae44e85
/0/model.22/Concat_25_output_0: 41796fce
/1/Transpose_output_0: 41796fce
boxes: 41796fce
/1/Slice_1_output_0: 3ae44e85
scores: 3ae44e85
(Unnamed Layer* 448) [TopK]_output: 3ae44e85
classes: 3f1f4871
